
#ifdef __has_attribute
#define HAVE_ATTRIBUTE(x) __has_attribute(x)
#else
#define HAVE_ATTRIBUTE(x) 0
#endif
#if HAVE_ATTRIBUTE(aligned) || (defined(__GNUC__) && !defined(__clang__))
#define DATA_ALIGN_ATTRIBUTE __attribute__((aligned(4)))
#else
#define DATA_ALIGN_ATTRIBUTE
#endif

const unsigned char model_data[] DATA_ALIGN_ATTRIBUTE = {0x1c, 0x00, 0x00, 0x00, 0x54, 0x46, 0x4c, 0x33, 0x14, 0x00, 0x20, 0x00, 0x1c, 0x00, 0x18, 0x00, 0x14, 0x00, 0x10, 0x00, 0x0c, 0x00, 0x00, 0x00, 0x08, 0x00, 0x04, 0x00, 0x14, 0x00, 0x00, 0x00, 0x1c, 0x00, 0x00, 0x00, 0x94, 0x00, 0x00, 0x00, 0xec, 0x00, 0x00, 0x00, 0x08, 0x07, 0x00, 0x00, 0x18, 0x07, 0x00, 0x00, 0x28, 0x0c, 0x00, 0x00, 0x03, 0x00, 0x00, 0x00, 0x01, 0x00, 0x00, 0x00, 0x10, 0x00, 0x00, 0x00, 0x00, 0x00, 0x0a, 0x00, 0x10, 0x00, 0x0c, 0x00, 0x08, 0x00, 0x04, 0x00, 0x0a, 0x00, 0x00, 0x00, 0x0c, 0x00, 0x00, 0x00, 0x1c, 0x00, 0x00, 0x00, 0x38, 0x00, 0x00, 0x00, 0x0f, 0x00, 0x00, 0x00, 0x73, 0x65, 0x72, 0x76, 0x69, 0x6e, 0x67, 0x5f, 0x64, 0x65, 0x66, 0x61, 0x75, 0x6c, 0x74, 0x00, 0x01, 0x00, 0x00, 0x00, 0x04, 0x00, 0x00, 0x00, 0x94, 0xff, 0xff, 0xff, 0x09, 0x00, 0x00, 0x00, 0x04, 0x00, 0x00, 0x00, 0x07, 0x00, 0x00, 0x00, 0x64, 0x65, 0x6e, 0x73, 0x65, 0x5f, 0x38, 0x00, 0x01, 0x00, 0x00, 0x00, 0x04, 0x00, 0x00, 0x00, 0x86, 0xf9, 0xff, 0xff, 0x04, 0x00, 0x00, 0x00, 0x0d, 0x00, 0x00, 0x00, 0x64, 0x65, 0x6e, 0x73, 0x65, 0x5f, 0x36, 0x5f, 0x69, 0x6e, 0x70, 0x75, 0x74, 0x00, 0x00, 0x00, 0x02, 0x00, 0x00, 0x00, 0x34, 0x00, 0x00, 0x00, 0x04, 0x00, 0x00, 0x00, 0xdc, 0xff, 0xff, 0xff, 0x0c, 0x00, 0x00, 0x00, 0x04, 0x00, 0x00, 0x00, 0x13, 0x00, 0x00, 0x00, 0x43, 0x4f, 0x4e, 0x56, 0x45, 0x52, 0x53, 0x49, 0x4f, 0x4e, 0x5f, 0x4d, 0x45, 0x54, 0x41, 0x44, 0x41, 0x54, 0x41, 0x00, 0x08, 0x00, 0x0c, 0x00, 0x08, 0x00, 0x04, 0x00, 0x08, 0x00, 0x00, 0x00, 0x0b, 0x00, 0x00, 0x00, 0x04, 0x00, 0x00, 0x00, 0x13, 0x00, 0x00, 0x00, 0x6d, 0x69, 0x6e, 0x5f, 0x72, 0x75, 0x6e, 0x74, 0x69, 0x6d, 0x65, 0x5f, 0x76, 0x65, 0x72, 0x73, 0x69, 0x6f, 0x6e, 0x00, 0x0d, 0x00, 0x00, 0x00, 0x18, 0x06, 0x00, 0x00, 0x10, 0x06, 0x00, 0x00, 0xfc, 0x05, 0x00, 0x00, 0xa4, 0x05, 0x00, 0x00, 0x54, 0x05, 0x00, 0x00, 0x04, 0x05, 0x00, 0x00, 0xf4, 0x00, 0x00, 0x00, 0xa4, 0x00, 0x00, 0x00, 0x9c, 0x00, 0x00, 0x00, 0x94, 0x00, 0x00, 0x00, 0x8c, 0x00, 0x00, 0x00, 0x6c, 0x00, 0x00, 0x00, 0x04, 0x00, 0x00, 0x00, 0x36, 0xfa, 0xff, 0xff, 0x04, 0x00, 0x00, 0x00, 0x58, 0x00, 0x00, 0x00, 0x0c, 0x00, 0x00, 0x00, 0x08, 0x00, 0x0e, 0x00, 0x08, 0x00, 0x04, 0x00, 0x08, 0x00, 0x00, 0x00, 0x10, 0x00, 0x00, 0x00, 0x28, 0x00, 0x00, 0x00, 0x00, 0x00, 0x06, 0x00, 0x08, 0x00, 0x04, 0x00, 0x06, 0x00, 0x00, 0x00, 0x04, 0x00, 0x00, 0x00, 0x01, 0x00, 0x00, 0x00, 0xea, 0x03, 0x00, 0x00, 0x00, 0x00, 0x0a, 0x00, 0x10, 0x00, 0x0c, 0x00, 0x08, 0x00, 0x04, 0x00, 0x0a, 0x00, 0x00, 0x00, 0x02, 0x00, 0x00, 0x00, 0x02, 0x00, 0x00, 0x00, 0x04, 0x00, 0x00, 0x00, 0x06, 0x00, 0x00, 0x00, 0x32, 0x2e, 0x31, 0x30, 0x2e, 0x31, 0x00, 0x00, 0x9a, 0xfa, 0xff, 0xff, 0x04, 0x00, 0x00, 0x00, 0x10, 0x00, 0x00, 0x00, 0x31, 0x2e, 0x35, 0x2e, 0x30, 0x00, 0x00, 0x00, 0x00, 0x00, 0x00, 0x00, 0x00, 0x00, 0x00, 0x00, 0xa8, 0xf5, 0xff, 0xff, 0xac, 0xf5, 0xff, 0xff, 0xb0, 0xf5, 0xff, 0xff, 0xc2, 0xfa, 0xff, 0xff, 0x04, 0x00, 0x00, 0x00, 0x40, 0x00, 0x00, 0x00, 0x15, 0x97, 0x3d, 0x3e, 0xdd, 0x84, 0x31, 0x3f, 0x49, 0x1a, 0x2f, 0x3d, 0x70, 0x3e, 0x0a, 0x3e, 0xf2, 0x00, 0x78, 0xbe, 0x56, 0xd2, 0x8c, 0x3e, 0xcb, 0xa9, 0x6d, 0xbe, 0x73, 0xec, 0xf6, 0x3d, 0xcf, 0x5a, 0x65, 0xbf, 0xc9, 0xea, 0x5c, 0x3e, 0x7c, 0x56, 0x82, 0x3f, 0xf8, 0x7b, 0x04, 0x3d, 0x49, 0xaa, 0x87, 0xbd, 0x65, 0x33, 0x4e, 0xbd, 0x7e, 0x0b, 0x10, 0x3e, 0xfa, 0x3f, 0x4a, 0x3e, 0x0e, 0xfb, 0xff, 0xff, 0x04, 0x00, 0x00, 0x00, 0x00, 0x04, 0x00, 0x00, 0xc0, 0xdb, 0x33, 0x3c, 0x4e, 0x49, 0x13, 0x3e, 0x48, 0x6f, 0x88, 0x3d, 0xac, 0x70, 0x09, 0xbe, 0x12, 0x76, 0x16, 0x3e, 0xa4, 0x0b, 0xfc, 0x3d, 0xea, 0x42, 0x06, 0xbe, 0x54, 0x8b, 0xff, 0x3c, 0x0c, 0x64, 0x45, 0x3e, 0x82, 0xd6, 0x22, 0x3e, 0x88, 0x56, 0x47, 0xbe, 0x4d, 0xb9, 0x11, 0x3e, 0x6e, 0xd9, 0x7d, 0xbe, 0x24, 0x06, 0x6d, 0xbe, 0x98, 0x0a, 0x4d, 0x3d, 0x42, 0xb0, 0x40, 0xbe, 0x34, 0x37, 0xd2, 0x3d, 0x47, 0xb8, 0x43, 0x3e, 0x97, 0x4c, 0x71, 0x3d, 0x2d, 0x76, 0xfc, 0xbe, 0x8d, 0x18, 0x88, 0xbe, 0x42, 0xf8, 0x36, 0x3e, 0x44, 0xdb, 0x3e, 0x3e, 0x86, 0xfc, 0x58, 0x3e, 0x80, 0x65, 0x89, 0x3b, 0x40, 0x69, 0xaa, 0xbd, 0xd4, 0xca, 0x5f, 0xbe, 0xe9, 0x47, 0x01, 0x3e, 0xcf, 0x12, 0x12, 0xbf, 0x3e, 0x56, 0x31, 0xbe, 0x93, 0xee, 0x1c, 0xbf, 0x90, 0x34, 0x01, 0x3e, 0x12, 0xa2, 0x3a, 0x3e, 0x88, 0xee, 0x29, 0xbc, 0x8d, 0x28, 0x15, 0x3d, 0x33, 0xe9, 0x7e, 0x3e, 0xcd, 0x37, 0x35, 0xbe, 0x24, 0x74, 0xdd, 0xbd, 0x3b, 0x03, 0x6c, 0xbe, 0x88, 0x6d, 0x22, 0x3e, 0x2a, 0x3f, 0x77, 0x3e, 0x20, 0x0f, 0x4d, 0x3d, 0xf8, 0x95, 0x11, 0xbd, 0x6b, 0xd0, 0x42, 0x3e, 0x49, 0xd9, 0x0f, 0x3e, 0xe7, 0x5b, 0x23, 0x3e, 0x4a, 0xbd, 0x45, 0x3e, 0xa4, 0x57, 0x7b, 0xbe, 0xd4, 0x96, 0xeb, 0x3d, 0x7e, 0x61, 0x17, 0x3e, 0xf2, 0xa3, 0x78, 0xbe, 0xe8, 0x6b, 0x22, 0xbe, 0xe0, 0xd6, 0x17, 0xbd, 0xdc, 0xe5, 0xe0, 0xbd, 0x60, 0x17, 0x28, 0x3e, 0x6e, 0x14, 0x0e, 0xbe, 0xc8, 0xd3, 0x60, 0xbd, 0x48, 0x89, 0x76, 0x3e, 0x1c, 0x17, 0x65, 0x3e, 0x14, 0x0a, 0x30, 0xbe, 0x80, 0x09, 0xaa, 0xbd, 0xf8, 0x55, 0xdd, 0x3d, 0xfa, 0x85, 0x69, 0x3e, 0x5e, 0xde, 0x39, 0xbe, 0xe0, 0xe5, 0x6f, 0xbc, 0x28, 0x88, 0x4a, 0xbe, 0x48, 0x4e, 0xca, 0xbd, 0x80, 0xf3, 0x56, 0x3c, 0xca, 0x58, 0x55, 0xbe, 0x0c, 0xc7, 0xe4, 0xbd, 0xd6, 0x41, 0x5d, 0xbe, 0xda, 0xe1, 0x33, 0xbe, 0xd0, 0x63, 0x7d, 0xbd, 0x80, 0x21, 0xdc, 0xbc, 0xe8, 0x9a, 0x0f, 0xbe, 0x78, 0xdb, 0x07, 0xbe, 0xcc, 0xeb, 0x7c, 0xbe, 0x2a, 0x3f, 0x3e, 0xbe, 0x00, 0xde, 0xb8, 0x3a, 0x04, 0xcb, 0x73, 0xbe, 0x24, 0xaf, 0x02, 0x3e, 0x04, 0x62, 0xe8, 0x3d, 0xdc, 0xbd, 0xd2, 0xbd, 0x40, 0x0b, 0x59, 0xbe, 0x0b, 0x12, 0x1c, 0xbe, 0x28, 0xe9, 0x1b, 0xbd, 0x6d, 0xdf, 0x66, 0x3e, 0xa0, 0x87, 0x76, 0x3d, 0xec, 0x8d, 0x04, 0x3e, 0x20, 0x0f, 0x2b, 0xbe, 0x46, 0x1e, 0x68, 0xbe, 0x0d, 0x34, 0xc3, 0xbb, 0x83, 0x0a, 0x12, 0xbf, 0x5b, 0x8d, 0x9b, 0x3d, 0x9d, 0x7b, 0x29, 0xbf, 0x78, 0xea, 0x07, 0x3d, 0xe2, 0x87, 0x37, 0xbe, 0x74, 0x29, 0x25, 0x3e, 0x06, 0x23, 0x10, 0xbe, 0x3e, 0xec, 0x96, 0xbe, 0xdd, 0xed, 0x49, 0xbd, 0x60, 0xc0, 0x0d, 0x3c, 0x8f, 0x2f, 0x9f, 0x3e, 0xc2, 0x49, 0x04, 0x3e, 0x30, 0xf5, 0xde, 0xbd, 0x60, 0x27, 0x4e, 0xbc, 0xee, 0x58, 0x6b, 0xbe, 0x70, 0xa0, 0x8a, 0x3e, 0x96, 0x0f, 0xd6, 0x3d, 0xf1, 0x90, 0x42, 0xbe, 0xfb, 0x09, 0x61, 0x3e, 0xd0, 0x60, 0x09, 0xbd, 0x94, 0xac, 0x11, 0xbe, 0x5f, 0x2e, 0x57, 0x3e, 0xea, 0x78, 0x6c, 0xbe, 0xb8, 0x93, 0x05, 0xbe, 0x8f, 0xf4, 0x03, 0x3e, 0x50, 0xf3, 0x05, 0x3e, 0x94, 0x05, 0x78, 0xbe, 0xf3, 0x87, 0x3e, 0x3d, 0xd8, 0xd8, 0x06, 0xbe, 0x50, 0xf8, 0x00, 0x3d, 0xc2, 0x32, 0x10, 0xbe, 0x09, 0xa4, 0xd2, 0x3d, 0x3b, 0x20, 0x32, 0xbe, 0xb1, 0x3c, 0x8f, 0xbd, 0xde, 0x91, 0x18, 0x3e, 0x78, 0xdf, 0x6c, 0xbe, 0xde, 0x19, 0x00, 0x3e, 0xe0, 0xc3, 0x96, 0xbe, 0xef, 0xe9, 0x82, 0x3d, 0x38, 0x1a, 0x97, 0x3d, 0xdb, 0x66, 0xd0, 0xbe, 0xa0, 0x5c, 0x15, 0xbe, 0x56, 0x6c, 0xa5, 0x3e, 0x48, 0x5c, 0x40, 0x3e, 0x00, 0x1a, 0x34, 0xbe, 0x60, 0x5b, 0x20, 0xbe, 0x2a, 0x0d, 0x18, 0xbe, 0x70, 0x44, 0xec, 0xbe, 0xa0, 0xb4, 0x36, 0xbc, 0x6e, 0xe3, 0x88, 0xbe, 0x02, 0xb2, 0x2d, 0x3e, 0xa0, 0x5b, 0x4c, 0x3d, 0x6e, 0x7d, 0x03, 0xbe, 0xe2, 0xf4, 0x80, 0xbe, 0x5e, 0xce, 0x0e, 0x3d, 0x68, 0x51, 0x11, 0x3d, 0xf9, 0x82, 0x15, 0xbe, 0x28, 0x62, 0x70, 0x3d, 0x15, 0x9b, 0x4d, 0xbc, 0x76, 0x45, 0xa7, 0xbd, 0x70, 0x8f, 0x7e, 0xbe, 0xd0, 0x7d, 0xb6, 0x3c, 0x12, 0x03, 0x58, 0x3e, 0xa0, 0x0c, 0xe9, 0xbd, 0x08, 0x03, 0x6f, 0x3d, 0x53, 0x03, 0x4a, 0xbe, 0x26, 0x6b, 0x73, 0xbe, 0xf6, 0xb6, 0x04, 0xbe, 0xe0, 0xaa, 0x7c, 0x3e, 0x01, 0xfe, 0x16, 0xbe, 0xb9, 0x39, 0xd4, 0xbe, 0x7b, 0xca, 0x22, 0x3f, 0xde, 0x9d, 0x4d, 0x3d, 0x00, 0xc5, 0x78, 0xbe, 0x91, 0x5a, 0x70, 0xbe, 0xdb, 0xd6, 0x18, 0x3d, 0x90, 0x08, 0xd0, 0x3d, 0x94, 0xb8, 0x3e, 0xbe, 0xa0, 0x9a, 0x13, 0xbd, 0x1e, 0x44, 0xd7, 0x3d, 0xd7, 0xed, 0x25, 0x3f, 0xc6, 0x23, 0x3b, 0xbd, 0x1c, 0xaa, 0x37, 0x3f, 0xf8, 0x49, 0x06, 0x3d, 0x1c, 0x8d, 0xb7, 0xbd, 0x94, 0x84, 0xec, 0x3d, 0x3a, 0xdd, 0x2e, 0xbe, 0x54, 0x06, 0xcd, 0x3d, 0x68, 0x84, 0x97, 0xbd, 0xda, 0x60, 0x45, 0x3e, 0x04, 0x8a, 0xff, 0xbd, 0x24, 0x56, 0xeb, 0xbd, 0xb0, 0x39, 0x68, 0x3d, 0x88, 0x9c, 0x44, 0x3e, 0xf4, 0xc1, 0x31, 0x3e, 0x5c, 0xc5, 0x2c, 0xbe, 0xf4, 0x57, 0x7a, 0x3e, 0x80, 0x8a, 0xbd, 0x3d, 0x0c, 0x22, 0x81, 0xbd, 0x54, 0xc9, 0xab, 0x3d, 0x60, 0x2e, 0xb4, 0xbc, 0xf4, 0xe8, 0x2b, 0x3e, 0xd1, 0x52, 0xf5, 0x3d, 0xe9, 0x5c, 0x18, 0x3e, 0x94, 0x1e, 0x3a, 0x3e, 0x64, 0x24, 0x1c, 0x3e, 0x0b, 0x4e, 0x7f, 0x3d, 0xe9, 0x99, 0x1e, 0x3e, 0x1a, 0xb5, 0x6e, 0x3e, 0xe8, 0x7d, 0xe5, 0xbd, 0x80, 0x1d, 0xef, 0x3d, 0x1c, 0x32, 0x32, 0x3e, 0xed, 0x5a, 0x13, 0xbe, 0xad, 0x7e, 0xb8, 0xbd, 0x15, 0x6f, 0xb8, 0x3e, 0x3c, 0x66, 0x28, 0x3e, 0xc2, 0xc4, 0x2c, 0xbe, 0x25, 0xfc, 0x03, 0xbe, 0xad, 0x67, 0x55, 0x3e, 0xe5, 0x83, 0x6d, 0x3e, 0x4d, 0x39, 0x85, 0x3e, 0x60, 0x95, 0x61, 0x3e, 0x4c, 0xd1, 0x79, 0x3e, 0xe3, 0x38, 0xd1, 0xbd, 0xa0, 0xfd, 0x14, 0xbe, 0x32, 0x98, 0x12, 0x3e, 0xf8, 0x0c, 0x55, 0x3d, 0xf7, 0x45, 0x0e, 0xbe, 0x00, 0x52, 0x40, 0x3e, 0x4e, 0xb1, 0x9a, 0x3e, 0x3a, 0x3c, 0x0a, 0x3e, 0x80, 0x01, 0x0f, 0x3b, 0xf8, 0x0c, 0x72, 0xbe, 0x5e, 0x39, 0x89, 0xbd, 0xa2, 0x33, 0xf6, 0x3d, 0xdc, 0x01, 0xa9, 0xbd, 0xbf, 0x4a, 0x3e, 0xbe, 0xe4, 0x34, 0xb4, 0x3d, 0xb5, 0x6c, 0xba, 0xbd, 0x6b, 0x28, 0x1e, 0xbe, 0x9c, 0xda, 0xbe, 0xbd, 0x00, 0x54, 0x4b, 0x3c, 0xcc, 0xf3, 0xb0, 0xbd, 0xe3, 0xe6, 0x2e, 0xbe, 0x6c, 0xd7, 0xd0, 0xbd, 0xea, 0x09, 0xd1, 0xbd, 0x44, 0xce, 0x69, 0x3e, 0x80, 0x9f, 0x9b, 0x3d, 0x9c, 0xe9, 0xae, 0x3d, 0xe2, 0x82, 0x44, 0xbe, 0x46, 0xde, 0x34, 0x3e, 0xbe, 0x05, 0x5f, 0xbe, 0xfc, 0xe1, 0x5d, 0x3e, 0x3a, 0x61, 0x2b, 0xbe, 0x2e, 0xea, 0x20, 0xbe, 0xe8, 0x29, 0x3b, 0x3d, 0x68, 0xf0, 0x02, 0x3e, 0x60, 0xc6, 0x47, 0xbe, 0x04, 0x37, 0x1f, 0xbe, 0x76, 0x91, 0x01, 0xbe, 0x6c, 0xc9, 0x90, 0xbd, 0xb8, 0x70, 0x40, 0xbe, 0xc8, 0x53, 0xde, 0xbd, 0x88, 0xbf, 0xc3, 0x3d, 0x1a, 0xff, 0xff, 0xff, 0x04, 0x00, 0x00, 0x00, 0x40, 0x00, 0x00, 0x00, 0xa4, 0x4d, 0xd6, 0xbe, 0xf7, 0x3a, 0x73, 0x3f, 0x26, 0x8c, 0xcc, 0x3e, 0x8d, 0xd1, 0x32, 0x3f, 0x7f, 0xab, 0x28, 0x3f, 0x14, 0xa7, 0xc3, 0xbe, 0xb9, 0xaf, 0x4d, 0x3f, 0x78, 0x77, 0x3d, 0x3f, 0x48, 0x6e, 0x39, 0xbf, 0xa6, 0xa9, 0x0d, 0xbf, 0x32, 0x0a, 0x4b, 0xbf, 0xd2, 0xf0, 0x58, 0x3f, 0x43, 0xa1, 0x17, 0x3f, 0xd2, 0xfe, 0x72, 0x3f, 0x62, 0xe0, 0x28, 0x3f, 0xea, 0x5f, 0x3b, 0xbf, 0x66, 0xff, 0xff, 0xff, 0x04, 0x00, 0x00, 0x00, 0x40, 0x00, 0x00, 0x00, 0xde, 0x34, 0x0c, 0xbf, 0xb1, 0x71, 0x34, 0x3f, 0xe6, 0x25, 0xa4, 0x3f, 0xbc, 0xa0, 0xe2, 0xbf, 0x5e, 0xea, 0x01, 0xbd, 0x00, 0x4c, 0xe8, 0x3a, 0x4a, 0x3a, 0xca, 0x3f, 0x60, 0x2d, 0x86, 0x3f, 0x80, 0xae, 0x45, 0xbe, 0xa0, 0x73, 0x59, 0xbf, 0xbe, 0x87, 0x75, 0xbf, 0x8f, 0x1b, 0x05, 0x3e, 0xae, 0x35, 0x98, 0xbf, 0x95, 0xcb, 0x1a, 0xbc, 0x0b, 0x9b, 0x92, 0xbf, 0xca, 0x94, 0x03, 0xbf, 0xb2, 0xff, 0xff, 0xff, 0x04, 0x00, 0x00, 0x00, 0x40, 0x00, 0x00, 0x00, 0x09, 0x8b, 0x50, 0xbe, 0xdc, 0xf1, 0xce, 0x3e, 0x67, 0x04, 0x14, 0xbd, 0x7c, 0xfb, 0x81, 0xbd, 0x1c, 0xaa, 0xe8, 0xbd, 0xea, 0xfc, 0xa3, 0x3e, 0xc7, 0x9e, 0x5f, 0x3e, 0x16, 0xa7, 0x8b, 0x3d, 0x1d, 0x58, 0xa3, 0x3e, 0x35, 0xe4, 0x47, 0x3e, 0x55, 0xf7, 0x66, 0xbf, 0x9a, 0xb3, 0x47, 0xbe, 0xfe, 0x58, 0x31, 0xbe, 0xdb, 0x82, 0x9b, 0x3d, 0xca, 0xe5, 0x42, 0x3e, 0x16, 0x61, 0x1b, 0xbe, 0x00, 0x00, 0x06, 0x00, 0x08, 0x00, 0x04, 0x00, 0x06, 0x00, 0x00, 0x00, 0x04, 0x00, 0x00, 0x00, 0x04, 0x00, 0x00, 0x00, 0xcc, 0x8e, 0xc0, 0x3d, 0x08, 0xfb, 0xff, 0xff, 0x0c, 0xfb, 0xff, 0xff, 0x0f, 0x00, 0x00, 0x00, 0x4d, 0x4c, 0x49, 0x52, 0x20, 0x43, 0x6f, 0x6e, 0x76, 0x65, 0x72, 0x74, 0x65, 0x64, 0x2e, 0x00, 0x01, 0x00, 0x00, 0x00, 0x14, 0x00, 0x00, 0x00, 0x00, 0x00, 0x0e, 0x00, 0x18, 0x00, 0x14, 0x00, 0x10, 0x00, 0x0c, 0x00, 0x08, 0x00, 0x04, 0x00, 0x0e, 0x00, 0x00, 0x00, 0x14, 0x00, 0x00, 0x00, 0x1c, 0x00, 0x00, 0x00, 0xd8, 0x00, 0x00, 0x00, 0xdc, 0x00, 0x00, 0x00, 0xe0, 0x00, 0x00, 0x00, 0x04, 0x00, 0x00, 0x00, 0x6d, 0x61, 0x69, 0x6e, 0x00, 0x00, 0x00, 0x00, 0x03, 0x00, 0x00, 0x00, 0x80, 0x00, 0x00, 0x00, 0x38, 0x00, 0x00, 0x00, 0x04, 0x00, 0x00, 0x00, 0x9a, 0xff, 0xff, 0xff, 0x10, 0x00, 0x00, 0x00, 0x00, 0x00, 0x00, 0x08, 0x0c, 0x00, 0x00, 0x00, 0x10, 0x00, 0x00, 0x00, 0x84, 0xfb, 0xff, 0xff, 0x01, 0x00, 0x00, 0x00, 0x09, 0x00, 0x00, 0x00, 0x03, 0x00, 0x00, 0x00, 0x08, 0x00, 0x00, 0x00, 0x06, 0x00, 0x00, 0x00, 0x01, 0x00, 0x00, 0x00, 0xca, 0xff, 0xff, 0xff, 0x10, 0x00, 0x00, 0x00, 0x00, 0x00, 0x00, 0x08, 0x10, 0x00, 0x00, 0x00, 0x14, 0x00, 0x00, 0x00, 0xba, 0xff, 0xff, 0xff, 0x00, 0x00, 0x00, 0x01, 0x01, 0x00, 0x00, 0x00, 0x08, 0x00, 0x00, 0x00, 0x03, 0x00, 0x00, 0x00, 0x07, 0x00, 0x00, 0x00, 0x05, 0x00, 0x00, 0x00, 0x02, 0x00, 0x00, 0x00, 0x00, 0x00, 0x0e, 0x00, 0x16, 0x00, 0x00, 0x00, 0x10, 0x00, 0x0c, 0x00, 0x0b, 0x00, 0x04, 0x00, 0x0e, 0x00, 0x00, 0x00, 0x18, 0x00, 0x00, 0x00, 0x00, 0x00, 0x00, 0x08, 0x18, 0x00, 0x00, 0x00, 0x1c, 0x00, 0x00, 0x00, 0x00, 0x00, 0x06, 0x00, 0x08, 0x00, 0x07, 0x00, 0x06, 0x00, 0x00, 0x00, 0x00, 0x00, 0x00, 0x01, 0x01, 0x00, 0x00, 0x00, 0x07, 0x00, 0x00, 0x00, 0x03, 0x00, 0x00, 0x00, 0x00, 0x00, 0x00, 0x00, 0x04, 0x00, 0x00, 0x00, 0x03, 0x00, 0x00, 0x00, 0x01, 0x00, 0x00, 0x00, 0x09, 0x00, 0x00, 0x00, 0x01, 0x00, 0x00, 0x00, 0x00, 0x00, 0x00, 0x00, 0x0a, 0x00, 0x00, 0x00, 0xa4, 0x03, 0x00, 0x00, 0x34, 0x03, 0x00, 0x00, 0xc4, 0x02, 0x00, 0x00, 0x6c, 0x02, 0x00, 0x00, 0x20, 0x02, 0x00, 0x00, 0xd4, 0x01, 0x00, 0x00, 0x88, 0x01, 0x00, 0x00, 0xf4, 0x00, 0x00, 0x00, 0x60, 0x00, 0x00, 0x00, 0x04, 0x00, 0x00, 0x00, 0x9a, 0xfc, 0xff, 0xff, 0x00, 0x00, 0x00, 0x01, 0x14, 0x00, 0x00, 0x00, 0x1c, 0x00, 0x00, 0x00, 0x1c, 0x00, 0x00, 0x00, 0x0a, 0x00, 0x00, 0x00, 0x34, 0x00, 0x00, 0x00, 0x02, 0x00, 0x00, 0x00, 0xff, 0xff, 0xff, 0xff, 0x01, 0x00, 0x00, 0x00, 0x84, 0xfc, 0xff, 0xff, 0x19, 0x00, 0x00, 0x00, 0x53, 0x74, 0x61, 0x74, 0x65, 0x66, 0x75, 0x6c, 0x50, 0x61, 0x72, 0x74, 0x69, 0x74, 0x69, 0x6f, 0x6e, 0x65, 0x64, 0x43, 0x61, 0x6c, 0x6c, 0x3a, 0x30, 0x00, 0x00, 0x00, 0x02, 0x00, 0x00, 0x00, 0x01, 0x00, 0x00, 0x00, 0x01, 0x00, 0x00, 0x00, 0xf2, 0xfc, 0xff, 0xff, 0x00, 0x00, 0x00, 0x01, 0x14, 0x00, 0x00, 0x00, 0x1c, 0x00, 0x00, 0x00, 0x1c, 0x00, 0x00, 0x00, 0x09, 0x00, 0x00, 0x00, 0x6c, 0x00, 0x00, 0x00, 0x02, 0x00, 0x00, 0x00, 0xff, 0xff, 0xff, 0xff, 0x10, 0x00, 0x00, 0x00, 0xdc, 0xfc, 0xff, 0xff, 0x52, 0x00, 0x00, 0x00, 0x73, 0x65, 0x71, 0x75, 0x65, 0x6e, 0x74, 0x69, 0x61, 0x6c, 0x5f, 0x32, 0x2f, 0x64, 0x65, 0x6e, 0x73, 0x65, 0x5f, 0x37, 0x2f, 0x4d, 0x61, 0x74, 0x4d, 0x75, 0x6c, 0x3b, 0x73, 0x65, 0x71, 0x75, 0x65, 0x6e, 0x74, 0x69, 0x61, 0x6c, 0x5f, 0x32, 0x2f, 0x64, 0x65, 0x6e, 0x73, 0x65, 0x5f, 0x37, 0x2f, 0x52, 0x65, 0x6c, 0x75, 0x3b, 0x73, 0x65, 0x71, 0x75, 0x65, 0x6e, 0x74, 0x69, 0x61, 0x6c, 0x5f, 0x32, 0x2f, 0x64, 0x65, 0x6e, 0x73, 0x65, 0x5f, 0x37, 0x2f, 0x42, 0x69, 0x61, 0x73, 0x41, 0x64, 0x64, 0x00, 0x00, 0x02, 0x00, 0x00, 0x00, 0x01, 0x00, 0x00, 0x00, 0x10, 0x00, 0x00, 0x00, 0x82, 0xfd, 0xff, 0xff, 0x00, 0x00, 0x00, 0x01, 0x14, 0x00, 0x00, 0x00, 0x1c, 0x00, 0x00, 0x00, 0x1c, 0x00, 0x00, 0x00, 0x08, 0x00, 0x00, 0x00, 0x6c, 0x00, 0x00, 0x00, 0x02, 0x00, 0x00, 0x00, 0xff, 0xff, 0xff, 0xff, 0x10, 0x00, 0x00, 0x00, 0x6c, 0xfd, 0xff, 0xff, 0x52, 0x00, 0x00, 0x00, 0x73, 0x65, 0x71, 0x75, 0x65, 0x6e, 0x74, 0x69, 0x61, 0x6c, 0x5f, 0x32, 0x2f, 0x64, 0x65, 0x6e, 0x73, 0x65, 0x5f, 0x36, 0x2f, 0x4d, 0x61, 0x74, 0x4d, 0x75, 0x6c, 0x3b, 0x73, 0x65, 0x71, 0x75, 0x65, 0x6e, 0x74, 0x69, 0x61, 0x6c, 0x5f, 0x32, 0x2f, 0x64, 0x65, 0x6e, 0x73, 0x65, 0x5f, 0x36, 0x2f, 0x52, 0x65, 0x6c, 0x75, 0x3b, 0x73, 0x65, 0x71, 0x75, 0x65, 0x6e, 0x74, 0x69, 0x61, 0x6c, 0x5f, 0x32, 0x2f, 0x64, 0x65, 0x6e, 0x73, 0x65, 0x5f, 0x36, 0x2f, 0x42, 0x69, 0x61, 0x73, 0x41, 0x64, 0x64, 0x00, 0x00, 0x02, 0x00, 0x00, 0x00, 0x01, 0x00, 0x00, 0x00, 0x10, 0x00, 0x00, 0x00, 0x7e, 0xfe, 0xff, 0xff, 0x00, 0x00, 0x00, 0x01, 0x10, 0x00, 0x00, 0x00, 0x10, 0x00, 0x00, 0x00, 0x07, 0x00, 0x00, 0x00, 0x28, 0x00, 0x00, 0x00, 0xec, 0xfd, 0xff, 0xff, 0x1b, 0x00, 0x00, 0x00, 0x73, 0x65, 0x71, 0x75, 0x65, 0x6e, 0x74, 0x69, 0x61, 0x6c, 0x5f, 0x32, 0x2f, 0x64, 0x65, 0x6e, 0x73, 0x65, 0x5f, 0x38, 0x2f, 0x4d, 0x61, 0x74, 0x4d, 0x75, 0x6c, 0x00, 0x02, 0x00, 0x00, 0x00, 0x01, 0x00, 0x00, 0x00, 0x10, 0x00, 0x00, 0x00, 0xc6, 0xfe, 0xff, 0xff, 0x00, 0x00, 0x00, 0x01, 0x10, 0x00, 0x00, 0x00, 0x10, 0x00, 0x00, 0x00, 0x06, 0x00, 0x00, 0x00, 0x28, 0x00, 0x00, 0x00, 0x34, 0xfe, 0xff, 0xff, 0x1b, 0x00, 0x00, 0x00, 0x73, 0x65, 0x71, 0x75, 0x65, 0x6e, 0x74, 0x69, 0x61, 0x6c, 0x5f, 0x32, 0x2f, 0x64, 0x65, 0x6e, 0x73, 0x65, 0x5f, 0x37, 0x2f, 0x4d, 0x61, 0x74, 0x4d, 0x75, 0x6c, 0x00, 0x02, 0x00, 0x00, 0x00, 0x10, 0x00, 0x00, 0x00, 0x10, 0x00, 0x00, 0x00, 0x0e, 0xff, 0xff, 0xff, 0x00, 0x00, 0x00, 0x01, 0x10, 0x00, 0x00, 0x00, 0x10, 0x00, 0x00, 0x00, 0x05, 0x00, 0x00, 0x00, 0x28, 0x00, 0x00, 0x00, 0x7c, 0xfe, 0xff, 0xff, 0x1b, 0x00, 0x00, 0x00, 0x73, 0x65, 0x71, 0x75, 0x65, 0x6e, 0x74, 0x69, 0x61, 0x6c, 0x5f, 0x32, 0x2f, 0x64, 0x65, 0x6e, 0x73, 0x65, 0x5f, 0x36, 0x2f, 0x4d, 0x61, 0x74, 0x4d, 0x75, 0x6c, 0x00, 0x02, 0x00, 0x00, 0x00, 0x10, 0x00, 0x00, 0x00, 0x01, 0x00, 0x00, 0x00, 0x56, 0xff, 0xff, 0xff, 0x00, 0x00, 0x00, 0x01, 0x10, 0x00, 0x00, 0x00, 0x10, 0x00, 0x00, 0x00, 0x04, 0x00, 0x00, 0x00, 0x38, 0x00, 0x00, 0x00, 0xc4, 0xfe, 0xff, 0xff, 0x2b, 0x00, 0x00, 0x00, 0x73, 0x65, 0x71, 0x75, 0x65, 0x6e, 0x74, 0x69, 0x61, 0x6c, 0x5f, 0x32, 0x2f, 0x64, 0x65, 0x6e, 0x73, 0x65, 0x5f, 0x36, 0x2f, 0x42, 0x69, 0x61, 0x73, 0x41, 0x64, 0x64, 0x2f, 0x52, 0x65, 0x61, 0x64, 0x56, 0x61, 0x72, 0x69, 0x61, 0x62, 0x6c, 0x65, 0x4f, 0x70, 0x00, 0x01, 0x00, 0x00, 0x00, 0x10, 0x00, 0x00, 0x00, 0xaa, 0xff, 0xff, 0xff, 0x00, 0x00, 0x00, 0x01, 0x10, 0x00, 0x00, 0x00, 0x10, 0x00, 0x00, 0x00, 0x03, 0x00, 0x00, 0x00, 0x38, 0x00, 0x00, 0x00, 0x18, 0xff, 0xff, 0xff, 0x2b, 0x00, 0x00, 0x00, 0x73, 0x65, 0x71, 0x75, 0x65, 0x6e, 0x74, 0x69, 0x61, 0x6c, 0x5f, 0x32, 0x2f, 0x64, 0x65, 0x6e, 0x73, 0x65, 0x5f, 0x37, 0x2f, 0x42, 0x69, 0x61, 0x73, 0x41, 0x64, 0x64, 0x2f, 0x52, 0x65, 0x61, 0x64, 0x56, 0x61, 0x72, 0x69, 0x61, 0x62, 0x6c, 0x65, 0x4f, 0x70, 0x00, 0x01, 0x00, 0x00, 0x00, 0x10, 0x00, 0x00, 0x00, 0x00, 0x00, 0x16, 0x00, 0x18, 0x00, 0x14, 0x00, 0x00, 0x00, 0x10, 0x00, 0x0c, 0x00, 0x08, 0x00, 0x00, 0x00, 0x00, 0x00, 0x00, 0x00, 0x07, 0x00, 0x16, 0x00, 0x00, 0x00, 0x00, 0x00, 0x00, 0x01, 0x10, 0x00, 0x00, 0x00, 0x10, 0x00, 0x00, 0x00, 0x02, 0x00, 0x00, 0x00, 0x38, 0x00, 0x00, 0x00, 0x84, 0xff, 0xff, 0xff, 0x2b, 0x00, 0x00, 0x00, 0x73, 0x65, 0x71, 0x75, 0x65, 0x6e, 0x74, 0x69, 0x61, 0x6c, 0x5f, 0x32, 0x2f, 0x64, 0x65, 0x6e, 0x73, 0x65, 0x5f, 0x38, 0x2f, 0x42, 0x69, 0x61, 0x73, 0x41, 0x64, 0x64, 0x2f, 0x52, 0x65, 0x61, 0x64, 0x56, 0x61, 0x72, 0x69, 0x61, 0x62, 0x6c, 0x65, 0x4f, 0x70, 0x00, 0x01, 0x00, 0x00, 0x00, 0x01, 0x00, 0x00, 0x00, 0x00, 0x00, 0x16, 0x00, 0x1c, 0x00, 0x18, 0x00, 0x00, 0x00, 0x14, 0x00, 0x10, 0x00, 0x0c, 0x00, 0x00, 0x00, 0x00, 0x00, 0x08, 0x00, 0x07, 0x00, 0x16, 0x00, 0x00, 0x00, 0x00, 0x00, 0x00, 0x01, 0x14, 0x00, 0x00, 0x00, 0x20, 0x00, 0x00, 0x00, 0x20, 0x00, 0x00, 0x00, 0x01, 0x00, 0x00, 0x00, 0x3c, 0x00, 0x00, 0x00, 0x02, 0x00, 0x00, 0x00, 0xff, 0xff, 0xff, 0xff, 0x01, 0x00, 0x00, 0x00, 0x04, 0x00, 0x04, 0x00, 0x04, 0x00, 0x00, 0x00, 0x1f, 0x00, 0x00, 0x00, 0x73, 0x65, 0x72, 0x76, 0x69, 0x6e, 0x67, 0x5f, 0x64, 0x65, 0x66, 0x61, 0x75, 0x6c, 0x74, 0x5f, 0x64, 0x65, 0x6e, 0x73, 0x65, 0x5f, 0x36, 0x5f, 0x69, 0x6e, 0x70, 0x75, 0x74, 0x3a, 0x30, 0x00, 0x02, 0x00, 0x00, 0x00, 0x01, 0x00, 0x00, 0x00, 0x01, 0x00, 0x00, 0x00, 0x01, 0x00, 0x00, 0x00, 0x10, 0x00, 0x00, 0x00, 0x0c, 0x00, 0x0c, 0x00, 0x0b, 0x00, 0x00, 0x00, 0x00, 0x00, 0x04, 0x00, 0x0c, 0x00, 0x00, 0x00, 0x09, 0x00, 0x00, 0x00, 0x00, 0x00, 0x00, 0x09};
const int model_data_len = 3196;